0002
0000
0002
fffe
0000
ffff
ffff
ffff
ffff
0003
ffff
ffff
ffff
0000
0000
ffff
0000
0001
0000
fffe
ffff
ffff
0001
0000
0002
0000
0002
0001
ffff
ffff
0000
0002
0000
0000
0000
0000
0000
0000
0001
0001
0000
0001
ffff
0000
0001
0001
ffff
fffe
ffff
0000
0000
ffff
0000
0002
0001
0000
0001
0000
0001
0000
0000
ffff
0002
ffff
ffff
0003
ffff
0000
ffff
0000
0000
0001
