fffe
0001
ffff
0000
0001
0001
0000
ffff
0001
0001
ffff
0000
ffff
0000
0000
fffe
ffff
0001
0001
ffff
0001
ffff
ffff
0001
0000
0001
ffff
0001
0000
0000
0000
0001
0001
0000
0000
0001
0000
fffe
ffff
0001
0001
0000
0001
0000
0001
0000
0001
ffff
ffff
0000
0000
0000
0000
0002
0001
0001
ffff
0000
0000
0001
ffff
0000
0001
0001
0000
ffff
0001
ffff
0000
ffff
0001
0001
ffff
0000
0000
ffff
0001
0001
ffff
0001
0001
0001
0001
ffff
ffff
0001
0000
0001
ffff
0000
0001
0000
ffff
0000
0001
0000
0000
0000
0001
0000
0000
0001
0002
ffff
0001
0001
0001
0001
ffff
0001
0001
0001
0000
0001
0001
0000
0001
0001
0000
ffff
ffff
0000
0001
fffe
ffff
0000
ffff
0001
0001
ffff
0001
0001
0000
0001
0002
0000
fffe
ffff
0001
ffff
0001
0001
ffff
0002
0002
0000
0000
ffff
ffff
0000
0000
ffff
0000
0000
0001
0000
ffff
0000
0000
0001
0001
fffe
0000
ffff
ffff
0001
0001
0000
0001
ffff
0000
ffff
ffff
ffff
0001
0001
0000
0000
0002
0000
ffff
0000
0002
ffff
fffe
0002
0001
0001
0000
0000
0000
0000
ffff
ffff
0000
0000
fffe
0000
0001
ffff
0001
0000
0001
0000
0000
0001
ffff
0001
0000
0000
ffff
ffff
ffff
0001
ffff
0001
0000
ffff
ffff
ffff
ffff
ffff
0001
0001
0000
ffff
fffe
0000
fffe
0000
0000
0001
0000
0001
ffff
ffff
0000
0000
fffe
0001
0001
0001
0000
0000
0000
0000
0001
0001
0001
0000
0000
0001
0000
ffff
0000
0000
0001
0001
ffff
0000
fffe
0001
0000
ffff
0001
0001
0000
0001
0000
0000
0001
0000
ffff
0000
ffff
0001
0002
ffff
0000
0000
0001
0000
0000
0000
fffe
0000
fffe
0000
0001
ffff
0000
0001
0001
0000
0000
ffff
0000
0001
0001
0002
0001
0000
0000
0001
0000
0000
fffe
0001
0000
ffff
0000
0001
0000
fffe
0001
fffe
0001
0000
ffff
ffff
0001
0001
ffff
0000
ffff
ffff
0000
0002
0000
0002
fffe
0000
0000
ffff
0000
0000
0001
0000
0000
0001
ffff
0001
0001
ffff
0000
ffff
0001
0000
0000
0001
0000
0001
ffff
ffff
0000
0001
0001
ffff
0002
ffff
0002
0000
ffff
0000
0001
0001
ffff
0000
0001
0000
0000
0002
0000
0001
ffff
ffff
0000
ffff
ffff
0000
ffff
0001
0001
ffff
0001
0001
0001
ffff
ffff
0000
0001
0001
ffff
0001
0001
0000
0000
0000
ffff
fffe
0001
0001
0000
fffe
0000
ffff
0001
0001
0002
0001
0000
0001
0000
0000
ffff
0001
0001
0001
0001
0002
fffe
ffff
ffff
0001
0000
fffe
0001
ffff
0000
0001
0001
0001
0000
0000
0000
fffe
ffff
0001
0001
fffe
0000
0002
fffe
0000
ffff
0000
ffff
0002
0001
0000
ffff
ffff
0000
0001
ffff
ffff
0000
ffff
0000
fffe
0000
ffff
ffff
0000
ffff
ffff
0000
ffff
0000
0000
0000
ffff
ffff
0000
0000
ffff
0001
0001
0000
0000
0000
0000
0001
0000
0001
0001
0001
0000
0001
0000
0001
ffff
0000
0000
fffe
0001
ffff
0001
0000
0001
ffff
0001
0001
0001
0000
ffff
0001
0001
fffe
0000
0000
0001
0001
0001
0000
0000
0000
0001
ffff
0002
ffff
0001
fffe
ffff
0000
0000
ffff
fffe
ffff
0001
0001
0000
0001
0000
0000
ffff
ffff
0001
0002
ffff
0000
0000
ffff
ffff
ffff
0000
0002
0001
0000
0000
ffff
ffff
0001
0001
0000
ffff
0000
fffe
0001
ffff
0000
ffff
0000
ffff
0001
ffff
0001
ffff
ffff
ffff
0002
0001
ffff
0000
0001
0001
0001
ffff
ffff
0001
0000
ffff
ffff
0001
0001
0000
fffe
0001
ffff
ffff
0001
0001
0001
0001
0000
0000
ffff
0001
0001
0001
ffff
0000
0000
ffff
0000
0001
0000
ffff
0001
ffff
0001
0000
0001
0001
fffe
0000
0000
ffff
0001
0000
ffff
0000
0001
0000
ffff
0000
0000
0001
0000
0001
ffff
0000
0001
0000
0002
0001
fffe
ffff
0001
0000
0002
ffff
ffff
0001
0002
fffe
0001
ffff
ffff
0001
ffff
0000
0000
fffe
fffe
0001
0001
0000
0001
ffff
0000
ffff
0002
0000
0000
ffff
fffe
0001
0001
ffff
0000
0000
ffff
0002
0000
0000
0001
ffff
0001
ffff
ffff
ffff
0000
0002
0000
ffff
ffff
ffff
ffff
0000
0000
fffe
0000
0000
0000
ffff
0001
0000
0000
0000
0000
0001
0000
ffff
0000
ffff
0000
ffff
0001
0002
0000
ffff
0000
0001
0000
0001
ffff
0000
0001
0001
0000
0000
0000
ffff
0002
ffff
ffff
0001
0001
ffff
ffff
ffff
0001
0000
ffff
ffff
0000
0001
fffe
0001
ffff
0002
ffff
0002
0000
0001
0000
ffff
0000
0000
0001
0001
0000
0000
0001
ffff
0000
0001
0000
0001
0001
0000
ffff
0002
0000
fffe
fffe
0000
0000
0001
0000
0001
0001
0001
0002
0000
0001
0001
0000
ffff
0000
ffff
0000
ffff
0000
0000
0000
0001
ffff
ffff
0000
0000
ffff
0000
0001
ffff
ffff
0001
ffff
0000
ffff
0000
0001
ffff
ffff
0000
0000
0000
0001
0001
0000
0001
ffff
0001
ffff
ffff
0001
0001
0000
0000
0000
0001
0001
ffff
0000
0001
0000
0001
0000
0000
0001
ffff
0001
0001
0000
0003
0000
fffe
0001
0001
0000
0000
ffff
0001
ffff
0000
ffff
ffff
0001
0000
0000
0002
ffff
0000
ffff
ffff
0000
0000
0001
0000
0001
0001
0000
0000
ffff
0001
0002
fffe
0001
ffff
0001
ffff
fffe
0000
ffff
0001
0002
ffff
0000
ffff
fffe
ffff
0001
0002
0000
0000
ffff
0001
0000
0001
ffff
0002
0000
0001
ffff
ffff
0001
fffe
0001
0001
0000
ffff
ffff
0001
ffff
ffff
0001
0000
ffff
ffff
0000
ffff
0000
ffff
0001
0000
ffff
0001
0001
0000
0000
fffe
0002
0000
ffff
ffff
ffff
0001
ffff
fffe
0001
0002
0000
0001
0000
ffff
0001
0001
ffff
ffff
0000
ffff
ffff
0001
0000
0001
ffff
ffff
fffe
0001
ffff
0000
0001
0001
0001
0001
0000
ffff
0000
ffff
ffff
0002
0001
ffff
fffe
ffff
0001
0000
ffff
0001
0001
0001
0001
ffff
0001
ffff
0000
fffe
0000
0002
0001
0001
0000
0000
ffff
0001
0001
0001
0000
0000
0001
0001
ffff
0000
ffff
0000
0002
fffe
0002
0000
0000
ffff
0000
0000
ffff
0002
0000
0001
fffe
ffff
ffff
0000
ffff
0000
ffff
0002
0001
ffff
ffff
0001
0001
0001
ffff
0000
0000
ffff
0000
0001
0001
fffe
0001
0000
0001
ffff
ffff
0001
0001
0001
0001
ffff
0002
ffff
0001
0001
0001
0001
0001
0001
fffe
0001
ffff
0001
fffe
fffe
0001
ffff
0001
0001
0001
ffff
0000
0001
fffe
0000
ffff
fffe
ffff
ffff
0002
0000
ffff
0000
0001
0002
0000
0001
0000
0001
fffe
0001
ffff
ffff
ffff
0001
0001
0001
0001
ffff
ffff
0000
0000
0001
0000
0000
ffff
0001
ffff
0000
0000
0002
0001
ffff
0000
0000
0000
0001
0000
0000
0001
0000
0001
ffff
0001
0001
ffff
ffff
0000
fffe
0000
0001
ffff
ffff
0001
ffff
0000
0000
0001
0001
0001
fffe
ffff
0002
0001
ffff
ffff
0001
0000
0001
ffff
0002
0001
ffff
ffff
0002
0000
ffff
0001
ffff
0000
ffff
fffe
0001
0001
0001
0000
ffff
ffff
0001
0002
0001
0000
0001
0000
0001
0000
ffff
0002
ffff
0000
ffff
0000
0001
0001
0001
fffe
0001
ffff
0000
0001
0000
0001
0000
ffff
ffff
ffff
0000
0000
ffff
0001
0000
0001
0000
fffe
0000
fffe
0000
0001
0000
0001
0001
0000
0000
0000
0001
0001
0001
ffff
ffff
ffff
0001
ffff
0001
0000
ffff
0000
0000
0001
fffe
fffe
0001
0000
0000
ffff
0001
0002
0000
0002
fffe
ffff
0001
ffff
0001
ffff
fffe
0000
0001
ffff
0000
0000
0002
0000
0000
ffff
0000
0001
0002
ffff
0001
ffff
0001
fffe
0002
0001
0001
ffff
0001
ffff
0000
0001
0002
0000
0001
ffff
0001
0000
0000
ffff
0001
fffe
ffff
0002
0002
0001
ffff
0002
0000
0000
0001
0000
0000
0000
0001
0001
ffff
0000
0000
0000
0000
0000
ffff
0000
0000
ffff
0000
fffe
0000
0000
0001
ffff
0000
0001
0001
0001
0000
0000
ffff
0001
0002
0001
0001
ffff
ffff
0000
0001
0000
0000
0000
0000
0000
ffff
0002
ffff
0001
fffe
ffff
ffff
0001
0001
0000
0000
0000
ffff
0000
0000
ffff
0001
0000
0000
0000
0001
0001
0001
fffe
0000
ffff
ffff
ffff
0002
0001
ffff
0001
ffff
0001
0000
0001
0000
ffff
fffe
ffff
0001
0001
0001
0001
ffff
ffff
0000
fffe
0000
0000
ffff
0000
0000
0000
0000
0000
ffff
0002
0002
ffff
0000
0000
0000
ffff
0000
0001
0001
0001
0000
0000
ffff
0000
0001
0001
0000
ffff
0001
fffe
0001
0001
ffff
0000
0002
0000
0002
ffff
ffff
fffe
ffff
0000
0001
0001
ffff
0002
ffff
ffff
0001
0001
0000
ffff
ffff
0002
0001
0000
ffff
0001
0001
0001
0001
ffff
ffff
0002
0000
0000
0000
0000
ffff
0001
ffff
fffe
ffff
0000
ffff
ffff
0000
ffff
0001
ffff
ffff
ffff
ffff
fffe
0000
ffff
0001
ffff
0001
0002
0000
0000
ffff
0000
ffff
0000
0002
ffff
ffff
0000
fffe
ffff
ffff
ffff
ffff
0001
0001
0000
0001
0001
0000
0001
0000
0001
0000
0001
fffe
ffff
0002
0001
0000
0000
0001
0000
ffff
fffe
0000
ffff
0001
0000
0000
0001
ffff
0000
0001
0001
0001
0001
ffff
0001
0001
0000
0000
0000
ffff
fffe
ffff
0001
0001
0000
0000
0001
0001
0000
0001
0000
0001
ffff
ffff
0000
ffff
0000
0002
0000
ffff
0001
0001
0000
fffe
ffff
0001
ffff
ffff
0001
0002
0000
0001
ffff
0002
ffff
0000
0000
ffff
ffff
0000
0001
ffff
ffff
0001
0001
ffff
ffff
0001
0000
ffff
0000
0000
0000
0001
0001
0001
0002
fffe
0000
0000
0000
0000
0001
ffff
0001
0002
ffff
0001
ffff
0000
0000
ffff
0002
ffff
0000
ffff
ffff
0001
0000
0000
0000
0000
0000
0001
0000
0001
0002
ffff
0000
0000
0001
0001
fffe
ffff
0000
0001
ffff
ffff
ffff
ffff
0000
0001
0000
0000
0000
0000
0000
0000
0000
ffff
ffff
0000
0001
0000
0001
0002
0000
0000
0000
0000
0000
ffff
ffff
0002
ffff
0001
ffff
0000
0000
0001
0000
ffff
0002
0001
ffff
0001
0001
ffff
0000
0001
0000
0000
0000
0002
0000
0001
0000
ffff
0000
0001
0002
ffff
ffff
0000
0001
ffff
0000
0000
0000
0001
0002
0001
0001
0001
ffff
ffff
ffff
ffff
0001
0000
0001
ffff
ffff
0000
ffff
0001
0000
ffff
ffff
0001
0000
0000
0000
fffe
0000
ffff
0000
0001
0000
0000
ffff
0000
0001
0001
0000
ffff
0000
0000
0000
0000
0001
ffff
0001
0001
0001
0001
0001
ffff
0001
ffff
0001
0001
ffff
0000
ffff
fffd
0000
0001
ffff
0000
0000
ffff
0000
ffff
0001
ffff
0000
0001
0001
ffff
0001
0000
ffff
0001
0001
0000
ffff
0000
0000
0001
ffff
ffff
0000
ffff
0000
ffff
ffff
0000
0001
0000
ffff
0000
0001
0000
0000
0001
0000
ffff
0000
ffff
ffff
0001
0000
0000
fffe
0001
ffff
ffff
0001
0000
0000
0001
0000
0001
0001
0002
ffff
0000
0000
0000
0000
0001
0000
ffff
0000
ffff
fffe
0000
ffff
ffff
0001
0000
0001
0000
0001
0002
0002
0000
0001
0000
0001
0001
ffff
0000
ffff
fffe
ffff
fffe
0000
0000
0001
fffe
0002
0001
0000
fffe
0000
ffff
ffff
ffff
ffff
ffff
0000
0000
0001
0000
ffff
0000
0000
ffff
0001
fffe
0001
0000
ffff
ffff
ffff
0001
0001
0000
0001
0001
0001
0000
0001
0000
ffff
0000
ffff
0001
0001
0002
0000
0001
0000
0000
0000
0001
ffff
0000
ffff
ffff
0001
0000
0000
ffff
0001
0000
0000
ffff
0001
0000
ffff
0001
0000
ffff
0000
0000
ffff
0000
0001
0000
ffff
0000
ffff
0002
ffff
ffff
0000
ffff
ffff
ffff
ffff
0001
0001
ffff
0000
0000
0001
0000
0000
0000
0000
ffff
0000
0001
0000
0001
0001
0000
ffff
ffff
0000
0001
ffff
0000
0001
0001
0002
ffff
0001
0001
ffff
0000
ffff
0001
0000
fffe
0001
0000
0000
0001
ffff
0000
0000
ffff
0001
0001
0002
ffff
0001
0000
ffff
ffff
ffff
0000
ffff
0001
0000
0001
ffff
0001
0000
0000
0000
0000
0001
0001
0000
0000
fffe
0000
0001
0000
ffff
ffff
ffff
ffff
0001
0001
0001
ffff
0001
0001
0000
ffff
ffff
ffff
0001
0001
0001
0002
0000
ffff
0001
ffff
0000
fffe
0001
fffe
ffff
0000
fffe
0000
ffff
0000
0002
0001
0000
0001
0001
0001
ffff
0000
0001
0000
0001
ffff
ffff
0000
0000
ffff
0001
0000
0001
ffff
ffff
0000
ffff
0000
0000
0001
ffff
ffff
ffff
0001
0000
0000
ffff
0001
ffff
ffff
ffff
ffff
0000
0001
0001
0000
0002
0000
0000
ffff
ffff
0001
0001
0000
ffff
0000
ffff
0001
0001
ffff
ffff
0002
0000
0000
fffe
0001
0000
ffff
0001
0001
0000
0001
0000
ffff
ffff
0001
ffff
0001
ffff
0001
ffff
0001
ffff
0000
0001
0000
0000
ffff
ffff
0001
0002
ffff
0000
ffff
0001
0000
0000
ffff
0000
0002
ffff
ffff
0000
ffff
0000
fffe
ffff
0001
0001
0000
ffff
ffff
0000
0001
ffff
0001
0000
0001
0000
0000
ffff
0000
0001
0001
ffff
0001
0001
ffff
0000
0001
0001
0000
0000
0001
0000
0000
0001
0001
ffff
ffff
ffff
ffff
0000
fffe
ffff
0000
0000
0000
0000
0000
0001
0000
0000
ffff
ffff
ffff
0001
0001
0000
0001
ffff
ffff
0001
0000
ffff
ffff
0001
0001
ffff
0000
0001
0001
ffff
ffff
0000
0000
ffff
0001
0001
0000
fffe
ffff
0001
0001
ffff
ffff
ffff
0001
0000
0000
0001
ffff
ffff
0000
ffff
0001
0001
0000
ffff
0001
ffff
0000
0001
0000
0002
0000
ffff
ffff
ffff
0001
0001
0001
fffe
0000
0001
0001
ffff
0000
0001
0000
ffff
0001
0000
0000
0000
0000
ffff
ffff
0001
0002
0000
0002
0001
0001
0001
ffff
ffff
ffff
0001
0001
ffff
ffff
ffff
ffff
ffff
ffff
0001
ffff
0002
0000
ffff
0000
ffff
fffe
fffe
0000
ffff
0000
ffff
ffff
0000
ffff
0000
0001
0002
0000
0001
0001
0001
ffff
0000
0000
fffe
0001
0001
0000
0001
0000
0001
0001
0000
0000
0000
0001
0000
ffff
0001
0002
0001
0001
ffff
0002
0000
ffff
0000
0001
ffff
ffff
0001
0000
ffff
ffff
0001
ffff
0000
0000
0001
0000
0001
0000
0002
0000
ffff
ffff
0002
0000
0000
0000
0000
0000
0000
0001
0000
0001
0001
ffff
ffff
0000
0000
0000
ffff
ffff
0000
0001
0000
0002
ffff
0002
ffff
0001
0000
0001
0001
ffff
0000
ffff
0000
fffe
0000
0000
0001
0002
0000
0000
fffe
fffe
ffff
0000
ffff
0001
fffe
0001
0001
0000
0000
0001
fffe
0001
0001
0001
ffff
0000
ffff
0000
0002
0000
ffff
ffff
ffff
0001
ffff
0001
0000
0000
ffff
ffff
ffff
0001
0001
ffff
ffff
fffe
0001
ffff
0000
0000
0000
0001
0001
0001
0002
fffe
0001
0001
0000
ffff
0000
fffe
0000
0000
ffff
0001
fffe
0000
0002
0001
0001
0000
ffff
ffff
ffff
ffff
0000
ffff
0001
0001
0001
ffff
ffff
0002
0000
0000
ffff
0000
0001
0001
0000
ffff
fffe
ffff
fffe
0002
0000
0001
0002
0001
0000
0001
0000
fffe
0001
ffff
ffff
0000
0001
0001
ffff
fffe
fffe
ffff
0002
0000
0001
0001
0001
ffff
0001
0001
0001
ffff
0000
0002
ffff
ffff
ffff
0000
0001
ffff
0002
0000
ffff
0000
0002
0000
0000
ffff
0000
0000
0000
fffe
0001
0000
ffff
0000
0000
0001
0001
0000
0000
ffff
0001
0000
0000
0001
0001
fffe
0000
ffff
ffff
0000
0000
0000
0001
0000
0000
ffff
0000
0001
0001
fffe
ffff
ffff
0001
0001
0000
ffff
0000
ffff
0001
ffff
0000
0000
0000
ffff
0001
0000
0000
ffff
0001
0000
fffe
0000
ffff
0002
0001
0000
0001
0000
0000
0000
0000
ffff
0000
ffff
0001
0001
0001
0000
0000
ffff
0002
ffff
ffff
0000
0001
0001
ffff
0001
fffe
0001
ffff
0000
0001
0000
0001
0001
0000
0001
0002
0002
ffff
0002
0001
0000
0001
ffff
ffff
0000
ffff
0001
0001
0001
ffff
ffff
0000
0001
ffff
ffff
ffff
0001
0000
0000
0000
ffff
fffe
0001
0002
0000
0001
0001
0001
0000
0000
ffff
0000
0000
0000
0002
0000
ffff
0001
0000
ffff
0000
0000
0000
0002
ffff
ffff
0000
0001
0002
ffff
ffff
0000
ffff
0000
0001
0002
0001
0000
ffff
0001
0000
0000
0002
0000
0001
ffff
0000
0002
0000
ffff
0000
ffff
0001
0001
0000
0001
0001
0001
0001
fffe
ffff
0002
0001
ffff
0002
0000
ffff
ffff
ffff
ffff
0000
0000
0000
0000
0002
0001
fffe
0000
ffff
0000
ffff
ffff
ffff
fffe
ffff
0000
fffe
0001
ffff
0000
0001
0002
0001
ffff
0001
0000
0001
ffff
0002
ffff
0001
0002
0000
0001
0001
0000
0000
0000
0000
fffe
0001
fffe
0001
0000
0000
0000
ffff
ffff
fffe
ffff
0001
0002
fffe
0000
0000
ffff
0001
0000
0000
ffff
ffff
0000
0001
0002
0002
0000
0001
ffff
0001
0000
ffff
ffff
0001
ffff
fffe
0002
0001
0001
ffff
0002
0002
ffff
0000
0002
ffff
0000
ffff
0002
0001
0001
0000
0001
0000
0001
0000
fffe
ffff
0000
fffe
0000
0001
0001
0000
0000
ffff
0001
0000
0001
ffff
0000
ffff
ffff
0001
fffe
ffff
0001
ffff
0001
ffff
fffe
0000
ffff
0000
0001
ffff
ffff
0000
0000
0002
0001
ffff
0001
0001
ffff
0001
0001
ffff
0001
0001
0000
0000
0001
0001
0002
ffff
0001
0001
fffe
0000
ffff
ffff
0002
ffff
ffff
0002
0001
0001
0001
0000
0000
0000
0001
ffff
ffff
0000
0000
0001
fffe
ffff
ffff
0001
ffff
0000
ffff
0001
0000
ffff
0001
0000
0001
0000
0001
0001
fffe
0001
0001
0000
0000
0001
0001
0001
ffff
0000
0000
0000
0000
0002
ffff
ffff
0000
ffff
ffff
0000
0001
ffff
0000
0001
fffe
0000
ffff
ffff
0000
0001
0001
0001
0000
0000
0000
0000
ffff
fffe
ffff
0001
0001
0002
0001
0001
0000
0000
0001
ffff
ffff
0002
0001
ffff
ffff
ffff
ffff
0000
0000
0000
0000
0001
0001
0002
0000
0000
0001
0000
0001
0000
ffff
0000
0001
0000
0000
0000
0001
0001
fffe
ffff
0001
0001
0001
ffff
0001
ffff
ffff
ffff
ffff
0001
0001
ffff
0001
fffe
0001
0000
0000
ffff
0001
0001
0000
ffff
0001
0001
0000
0001
ffff
ffff
0000
ffff
ffff
0000
ffff
0001
0000
ffff
0000
0001
0000
ffff
0001
0000
0000
0001
ffff
0000
0000
0000
0000
0001
0000
0000
ffff
0001
0000
0001
0001
0000
0001
ffff
0001
0000
0000
ffff
0001
0002
0000
0000
ffff
0001
0000
0000
0000
0000
0001
0000
0002
0001
ffff
ffff
fffe
0000
0001
0000
ffff
ffff
0000
0000
ffff
ffff
ffff
0001
fffe
fffe
0001
0001
0000
ffff
ffff
0001
0001
0000
0002
0001
0000
ffff
0000
0000
ffff
0001
0000
fffe
0000
0000
ffff
0000
ffff
ffff
ffff
0000
ffff
0001
0000
0001
0001
0000
0000
0000
0000
ffff
0000
0000
0000
0000
ffff
0000
ffff
0001
ffff
0001
0000
ffff
ffff
0000
ffff
0000
0000
0001
0000
0002
0000
ffff
0000
0001
ffff
0001
0000
0002
ffff
fffe
ffff
0000
ffff
0002
0001
0000
0001
0001
0000
fffe
ffff
ffff
0000
0001
0001
0000
0001
0001
ffff
0000
0000
0000
0000
0000
ffff
0002
0001
0001
0001
0001
ffff
0000
0001
ffff
0001
ffff
ffff
0002
0001
0001
0001
ffff
0000
0001
ffff
0000
0000
ffff
0000
0001
0000
fffe
0001
ffff
0001
0000
0000
ffff
0000
0000
ffff
ffff
0000
0002
ffff
fffe
0000
0001
fffe
0002
0001
0000
0001
ffff
fffe
0001
0001
ffff
ffff
0001
0001
0001
0000
0001
0001
0001
ffff
ffff
0002
0000
fffe
ffff
0000
0000
fffe
0001
ffff
0001
ffff
ffff
0001
0000
ffff
0000
ffff
0001
fffe
0000
0000
0000
ffff
0000
0000
0001
0001
0001
ffff
0001
ffff
0000
0001
0000
0000
0001
0001
ffff
0001
0001
0001
0000
0001
0001
0001
0000
ffff
0000
ffff
0002
0000
0000
0001
0001
ffff
ffff
0000
ffff
0000
0000
0000
ffff
0000
ffff
0001
0001
0001
0001
0001
fffe
0002
0000
0001
0001
0000
ffff
ffff
fffe
ffff
0001
ffff
0001
ffff
0001
0000
0000
0001
fffe
0002
0000
0001
ffff
ffff
ffff
0000
ffff
0001
0000
ffff
0000
0002
ffff
0000
0000
0000
0001
ffff
0000
fffe
fffe
0000
0000
0001
0000
ffff
0000
0000
0001
0000
0000
ffff
0001
ffff
0001
0000
0002
ffff
0002
0001
ffff
ffff
0002
0001
0001
0000
ffff
0001
0000
0001
0001
0001
0002
0000
0001
fffe
0002
0000
ffff
0000
0001
0000
0001
0000
fffe
0001
0000
0001
ffff
0001
0001
ffff
0000
0000
0000
ffff
0000
0000
ffff
ffff
0000
0000
0002
0001
0000
0000
0000
0000
ffff
0000
0001
0000
ffff
0001
0000
0001
0000
0001
ffff
0001
0000
ffff
0001
ffff
ffff
0001
ffff
ffff
0000
0002
0002
ffff
0000
0000
ffff
ffff
ffff
0001
ffff
ffff
0000
0001
0000
0000
0000
ffff
ffff
ffff
0000
0000
0001
0001
ffff
ffff
ffff
0002
ffff
0000
0000
ffff
0001
0000
0001
0001
ffff
0002
ffff
0000
ffff
ffff
0001
0000
ffff
0001
0000
0000
0002
0000
0001
0000
ffff
0001
ffff
0001
0001
0000
ffff
0000
fffe
0001
0000
ffff
0002
0001
0001
0000
0000
0001
fffe
ffff
0000
0000
0000
ffff
0001
0001
ffff
0001
0001
ffff
ffff
0000
0000
0000
ffff
0000
0001
ffff
0001
0001
0000
0000
0001
ffff
0000
ffff
0000
0000
0000
ffff
0000
0000
ffff
ffff
0001
ffff
0000
0000
fffe
0000
0001
0000
0001
0001
0000
0002
0000
0000
ffff
ffff
0000
0000
ffff
0000
ffff
0000
0001
0000
0001
ffff
fffe
0001
0001
0000
ffff
0000
ffff
0000
0000
0002
0001
0002
fffe
0001
0000
ffff
0001
ffff
0000
0001
ffff
0002
0001
ffff
0000
ffff
0001
0000
0000
ffff
0001
0000
fffe
ffff
ffff
0000
0000
0000
ffff
0000
0001
ffff
0000
0000
0001
0000
0000
0001
0000
0001
0000
ffff
0001
0001
ffff
0000
0000
ffff
0000
0000
0001
0000
0001
0000
0000
ffff
0000
ffff
ffff
fffe
ffff
0001
0001
0001
0001
0001
ffff
0001
fffe
ffff
ffff
0001
0001
ffff
0000
0002
ffff
ffff
ffff
0000
0001
0000
0000
ffff
0000
ffff
0002
ffff
ffff
0000
0002
ffff
0002
0000
0000
0001
0001
ffff
0001
ffff
ffff
0001
0002
ffff
ffff
ffff
0000
0000
0001
0001
ffff
0000
ffff
0000
0000
fffe
0002
0001
fffe
ffff
0001
0000
ffff
ffff
ffff
0001
0000
0001
0000
ffff
0002
0000
ffff
ffff
0000
0000
0000
ffff
0000
0000
ffff
0002
ffff
0000
0000
0000
0000
ffff
ffff
ffff
0002
0000
ffff
ffff
ffff
0000
0000
ffff
0000
0002
fffe
0000
0002
0002
0001
0001
0000
ffff
ffff
ffff
0001
0000
fffe
ffff
0000
0001
0000
0000
ffff
ffff
0001
0001
ffff
0002
0001
0001
0001
0001
0000
0000
ffff
0000
0000
ffff
0002
ffff
ffff
0000
0001
ffff
0000
0001
ffff
0002
0001
0001
0000
0001
ffff
0000
0001
ffff
0000
0001
0000
ffff
0000
0000
ffff
0000
0000
0001
0000
ffff
0001
0000
0000
0001
0001
0001
0001
ffff
0001
0001
ffff
0001
ffff
0000
ffff
0001
ffff
0000
ffff
0001
0000
0001
ffff
0001
0001
0000
ffff
0001
ffff
ffff
0001
0001
0000
ffff
0000
0001
0001
0000
0000
0000
0000
ffff
ffff
ffff
fffe
0001
fffe
0000
0001
0000
0000
0001
ffff
0000
0000
ffff
ffff
0000
ffff
0000
fffe
0001
0002
0000
ffff
fffe
0001
0000
0001
ffff
0001
ffff
ffff
0000
0000
0001
ffff
0001
ffff
0000
0001
ffff
fffe
0000
ffff
ffff
ffff
ffff
0001
ffff
0001
ffff
0001
ffff
0000
ffff
0001
ffff
ffff
0001
0000
0000
0001
0000
0000
0000
fffe
ffff
ffff
0001
0001
ffff
fffe
0001
0001
0001
0001
0001
0000
0001
ffff
0001
ffff
0000
0000
0001
0001
0001
ffff
fffe
0000
0000
0001
0000
0000
0001
0001
0000
0001
ffff
0000
0002
ffff
0001
ffff
ffff
ffff
0001
ffff
ffff
fffe
0000
ffff
0001
0001
0000
0002
0001
ffff
ffff
fffe
ffff
0000
ffff
ffff
0001
0000
ffff
0000
ffff
0001
ffff
0000
0001
0000
0001
0000
ffff
0001
0001
0001
0000
0002
ffff
0000
ffff
ffff
0000
0000
0000
0001
0000
0000
0000
0000
0001
0002
fffe
0000
0001
0001
0001
0000
0000
0000
ffff
ffff
0000
0000
ffff
0000
ffff
ffff
0000
0000
0001
0001
0002
0001
ffff
0000
ffff
ffff
0001
ffff
ffff
ffff
0001
0000
0000
ffff
0000
0001
0000
0000
ffff
0001
ffff
ffff
ffff
0000
ffff
0001
0000
ffff
0001
0001
0001
0000
ffff
0000
0000
0002
0000
ffff
0001
0000
ffff
0001
0000
0000
ffff
ffff
0001
0002
0000
0001
0001
0000
fffe
0001
0000
ffff
ffff
0000
0002
ffff
0001
ffff
0002
ffff
ffff
ffff
0001
ffff
ffff
ffff
0000
0001
0000
0002
0000
0000
0001
ffff
ffff
fffe
ffff
0000
fffe
ffff
ffff
0000
0000
ffff
0001
0000
ffff
0001
0002
0000
0000
0000
0000
ffff
ffff
0000
0000
0002
ffff
0000
0000
0000
0001
0001
ffff
0001
ffff
0000
ffff
0001
0001
ffff
0001
0001
ffff
0000
fffe
0000
ffff
fffe
ffff
0000
0001
0001
0002
0001
ffff
0001
ffff
0000
0001
ffff
0000
ffff
ffff
0000
0000
0001
0001
0001
0000
0001
ffff
0000
0000
0000
ffff
0000
ffff
0001
0000
ffff
ffff
0000
0000
0000
0001
ffff
0000
ffff
0000
ffff
0001
fffe
0000
0000
0000
0000
0001
0000
0000
0002
fffe
0000
ffff
0001
ffff
0000
ffff
0001
0000
0000
0002
0000
0001
0001
0000
0000
ffff
ffff
0001
0000
0000
0002
fffe
0001
0001
0000
0000
0000
fffe
0001
0000
ffff
0000
0001
0001
fffe
0000
fffe
0000
ffff
0000
ffff
0001
ffff
0000
ffff
0001
0000
0000
0001
0000
0002
ffff
0000
ffff
0001
fffe
ffff
0000
0002
ffff
ffff
ffff
ffff
0000
0002
0000
ffff
0000
ffff
0000
ffff
0001
0002
ffff
0001
0000
0000
0001
0001
0001
fffe
0001
0001
0001
ffff
0000
ffff
0000
0000
0001
0000
0001
0000
ffff
0000
0000
0001
0001
ffff
0000
0001
fffe
0001
0001
0000
0001
0001
ffff
ffff
ffff
0000
ffff
0000
ffff
ffff
0001
ffff
0000
0001
0000
0000
0000
0000
0000
0001
fffe
0002
0002
ffff
0001
0001
fffe
0000
0000
0001
ffff
ffff
0002
ffff
fffe
0001
0000
0000
0000
ffff
0001
0001
0000
0001
ffff
0001
0001
ffff
0002
0000
ffff
ffff
0001
0000
ffff
0000
0001
fffe
0000
0000
0000
0000
0001
ffff
0000
0000
ffff
0000
fffe
0000
0000
0000
fffe
0001
ffff
0002
0001
0001
0001
0002
0000
0001
0000
0000
fffe
ffff
0000
0000
ffff
0000
0000
0000
0000
ffff
0001
0001
0000
0000
0000
ffff
0001
ffff
0001
fffe
ffff
ffff
0000
ffff
ffff
0000
0000
0000
0001
ffff
ffff
ffff
ffff
0001
0001
0001
0000
0001
ffff
0001
ffff
0000
0001
0002
ffff
0001
ffff
ffff
ffff
fffe
0001
0001
ffff
ffff
0000
0001
0001
0001
0001
0002
ffff
ffff
0000
0001
0000
0000
0001
0001
0001
0000
0000
fffd
ffff
ffff
0001
0001
0000
0001
ffff
0000
0002
0000
0002
0001
ffff
ffff
0000
fffe
0001
0002
0002
0003
0000
0001
ffff
0000
0000
0001
ffff
ffff
ffff
0001
0001
0002
0001
0001
0001
ffff
fffe
0000
ffff
0000
0001
0000
0000
ffff
ffff
0001
0000
0001
0001
0000
0002
0000
0000
0000
ffff
0000
0001
0000
ffff
ffff
0000
ffff
0000
0001
0001
0001
ffff
fffe
0000
ffff
ffff
0001
ffff
0001
0000
0001
0000
0001
ffff
0001
0000
ffff
0001
0000
0000
0000
0000
0002
0001
0000
ffff
ffff
0001
0000
0000
0000
0001
ffff
0001
0001
0001
0000
0000
0000
0000
ffff
ffff
fffe
0000
0001
0001
0002
0000
0000
0000
0001
0001
ffff
0000
0000
ffff
0001
fffe
ffff
ffff
0001
ffff
0000
0000
0000
0000
0000
0001
0000
0001
ffff
ffff
0000
ffff
ffff
0000
0001
ffff
fffe
ffff
0000
0000
fffe
0000
0001
0002
0000
0001
0000
0002
ffff
0000
ffff
0000
0001
0000
0001
0001
ffff
0000
0000
ffff
ffff
0000
0000
0000
0000
0000
0000
0001
0000
0000
ffff
0000
0000
ffff
ffff
fffe
ffff
0000
ffff
0001
ffff
0000
0001
ffff
0001
0001
0000
0002
0000
fffe
ffff
0001
0001
0000
0000
ffff
0000
0000
0000
0001
0000
0001
fffe
ffff
ffff
0001
0000
ffff
0002
0000
0001
0001
0002
0001
0000
0001
0000
0001
0002
0000
ffff
ffff
0001
fffe
0001
0000
0001
ffff
0001
0001
0000
ffff
0001
0002
0001
0001
0002
0001
0000
0000
0001
0002
ffff
0000
0000
ffff
0001
0001
0000
ffff
0002
ffff
fffe
fffe
ffff
ffff
0001
0001
fffe
0001
fffe
0000
ffff
0001
ffff
0000
0001
0000
0000
0000
0000
ffff
ffff
ffff
0001
0001
0002
0000
ffff
ffff
0000
0000
ffff
0001
ffff
0001
0001
0001
0000
ffff
0002
ffff
0001
0000
0001
0000
fffe
0002
0000
0001
ffff
0002
0001
0001
ffff
ffff
0000
ffff
ffff
0000
0000
0001
ffff
fffe
0001
0001
0000
ffff
ffff
0000
0002
fffe
0001
ffff
0000
0001
0000
0000
0001
ffff
0000
0001
0000
ffff
fffe
0001
ffff
0001
ffff
fffe
0001
0000
ffff
0002
ffff
0001
0000
0000
0001
0002
ffff
0000
0001
0001
ffff
0002
0001
ffff
0001
0000
fffe
0000
ffff
ffff
ffff
0000
0000
0000
0000
0001
0001
ffff
0002
0000
ffff
ffff
0000
0000
0001
0001
0001
0000
0000
0000
fffe
0001
ffff
0000
0000
0002
ffff
ffff
0002
ffff
0000
ffff
ffff
0000
0000
ffff
0001
0001
ffff
ffff
0000
0001
fffe
ffff
fffe
fffe
0001
ffff
0001
0001
0001
ffff
0000
0001
0000
ffff
0001
0000
ffff
0000
ffff
0000
0000
0001
0000
0000
0001
ffff
0002
0001
ffff
ffff
0000
0000
0000
ffff
0001
0001
0001
ffff
ffff
ffff
fffe
0001
0001
ffff
ffff
0001
0002
0001
0000
0000
0000
ffff
0001
0001
0000
0001
0001
0000
0000
ffff
0000
0000
fffe
0001
0000
0000
0000
0001
0000
ffff
0002
0001
0002
0000
0001
0000
ffff
0001
0000
0001
0001
ffff
0000
0001
0000
0001
0001
0000
0000
ffff
0001
0000
ffff
ffff
0000
ffff
0000
0001
0000
0000
0001
0001
0000
0001
fffe
0001
ffff
0001
0000
0001
0000
ffff
ffff
fffe
ffff
0000
0000
0000
0001
ffff
0000
0000
0001
ffff
0000
0002
0000
0000
ffff
ffff
ffff
0001
0001
0001
0001
ffff
0001
0001
0000
ffff
0000
0001
0001
0000
0000
0001
0000
0000
0001
0000
0000
0000
0000
fffe
ffff
0000
fffe
0000
0001
0000
0001
0001
0000
0000
0000
0001
ffff
ffff
0000
0001
0002
ffff
0000
0000
0001
0000
ffff
0002
ffff
0000
0000
0000
0000
0001
0001
ffff
0002
0000
0000
0000
fffe
0000
0001
ffff
ffff
0002
ffff
0002
ffff
ffff
ffff
0000
ffff
0001
fffe
0000
0000
0000
ffff
0000
ffff
0000
0000
ffff
0000
0001
0001
0000
0000
ffff
0000
0000
0001
0000
0001
ffff
0001
0002
0001
ffff
ffff
ffff
0000
0001
0001
ffff
0000
0001
0000
0001
0000
ffff
0000
0001
0000
ffff
ffff
0000
0001
0001
ffff
0000
0000
0001
0001
0001
ffff
0001
0000
0001
fffe
ffff
fffe
0000
0000
0001
0000
0001
0000
0001
ffff
0000
0001
0001
0001
ffff
0001
0000
ffff
0000
0000
0001
0002
0000
0000
fffe
ffff
ffff
ffff
0001
ffff
0001
0000
0001
ffff
0000
0001
ffff
0000
0000
0001
0001
ffff
0001
0000
ffff
ffff
0001
0001
0002
0001
0000
fffe
0000
0000
0000
0000
ffff
0000
0001
0001
0002
0001
ffff
ffff
fffe
0000
ffff
0001
ffff
0001
ffff
0000
0000
0000
ffff
ffff
0002
0001
ffff
0000
0001
0000
0000
0001
ffff
0001
ffff
ffff
0000
ffff
0000
ffff
0001
0000
0001
ffff
0001
0000
0000
0001
0000
fffe
0001
0001
0000
0001
0000
0001
ffff
ffff
0000
0000
ffff
0000
0001
ffff
0001
0001
0000
0000
0000
0002
0001
fffe
ffff
0001
ffff
0000
0000
0001
ffff
0000
0002
0001
ffff
ffff
0001
ffff
0002
0001
0002
ffff
0000
fffe
ffff
0000
0002
0001
0001
0001
ffff
0001
0001
0000
fffe
0000
0001
ffff
ffff
ffff
ffff
0000
0000
0002
0000
ffff
0001
0000
ffff
ffff
0000
0000
fffe
ffff
0001
0000
0000
0000
0000
0001
0001
0001
0000
0000
0000
ffff
0002
0001
0000
0001
fffe
ffff
ffff
0000
0002
ffff
0001
0000
ffff
ffff
0000
0000
ffff
0001
0002
0000
0001
0000
ffff
0001
0002
ffff
ffff
0001
0000
0001
0001
0002
0000
0000
ffff
0000
0001
ffff
0000
ffff
0001
ffff
0000
0001
0000
ffff
ffff
ffff
ffff
0001
0000
0000
ffff
0001
ffff
ffff
ffff
0001
ffff
ffff
fffe
0001
0001
0000
0001
0000
0000
0001
0001
0002
0001
0001
0000
0000
ffff
0000
ffff
ffff
0000
0001
fffe
ffff
0001
ffff
fffe
0000
fffe
0000
ffff
0000
ffff
0002
0000
0001
ffff
0000
0000
ffff
ffff
0000
0001
0000
0001
0002
0001
ffff
0000
ffff
fffe
0000
0002
0001
0000
fffe
ffff
0000
0001
0000
ffff
0001
ffff
0000
0000
0002
fffe
0001
0000
ffff
0000
0000
0000
0001
0001
0000
0001
ffff
ffff
ffff
0001
0002
fffe
0000
0000
ffff
ffff
0001
ffff
ffff
0000
ffff
0001
0001
0000
0000
0001
0000
0001
fffe
0001
0000
0000
0001
0000
0000
0001
0000
ffff
0000
0000
ffff
0001
0000
ffff
0001
ffff
0001
ffff
0000
0000
0000
0000
0000
ffff
0000
ffff
ffff
0000
ffff
0001
0001
0001
0000
0000
0001
fffe
0002
0000
ffff
ffff
0000
ffff
0002
ffff
0002
0001
ffff
ffff
0001
0000
ffff
0000
0000
0001
ffff
0000
0000
0000
0000
0001
ffff
0002
ffff
0000
ffff
0001
0000
0001
ffff
0000
0000
0000
fffe
0000
0002
0000
0001
0000
ffff
0000
0000
0000
ffff
fffe
0001
0001
0001
ffff
0001
ffff
0001
ffff
0000
ffff
ffff
ffff
0000
0002
0001
ffff
0000
ffff
fffe
ffff
0001
0001
0000
ffff
ffff
0000
0001
0000
ffff
0000
0001
0000
0000
0000
0001
ffff
0001
0000
0001
fffe
0002
0000
0000
0000
ffff
0000
fffe
0001
0001
0000
0000
0001
fffe
0001
0000
0000
ffff
0001
0000
0000
0000
0002
ffff
ffff
0001
0001
0000
0001
0000
0001
ffff
0000
0000
ffff
0001
0000
fffe
0000
ffff
ffff
0000
0001
0002
0000
0001
0001
ffff
0000
fffe
ffff
0001
0000
ffff
ffff
0001
0001
0000
0000
0000
0001
0000
ffff
0001
fffe
0001
0000
ffff
ffff
ffff
ffff
0001
0000
ffff
ffff
0000
0001
0000
ffff
0001
ffff
0001
fffe
0001
ffff
0001
ffff
ffff
0000
0001
ffff
ffff
0001
0002
0001
0001
0001
0002
0000
ffff
ffff
0001
0000
0002
0002
0001
ffff
ffff
0002
0000
0001
0001
fffe
0001
0000
0000
0001
ffff
0002
0001
0000
0002
0000
ffff
ffff
0002
0000
0000
0000
0001
0000
0000
ffff
0001
0002
0001
0000
0001
0002
ffff
ffff
fffe
ffff
ffff
ffff
0000
ffff
0001
0002
0001
0001
0001
ffff
0000
0001
0000
0001
0002
0000
ffff
0002
ffff
0000
0000
0000
ffff
ffff
0002
0000
0001
0001
0001
0001
0001
0000
0000
ffff
0001
0002
0001
ffff
0001
ffff
fffe
0002
0001
ffff
0000
0002
0000
0000
0001
0001
0000
0000
ffff
0001
ffff
0001
fffe
0000
0001
ffff
ffff
ffff
ffff
0000
ffff
ffff
0000
ffff
0000
0000
0000
0000
0000
0001
0000
0001
0000
0000
0000
0001
0000
0000
0000
0001
0001
0000
ffff
ffff
0000
0002
ffff
0001
0000
0001
0000
0001
0001
0001
0000
0002
ffff
0000
fffe
ffff
fffe
0000
0000
0000
ffff
ffff
0000
ffff
0000
0001
0001
0000
ffff
fffe
ffff
0000
ffff
ffff
ffff
0002
0000
0001
ffff
0001
fffe
ffff
ffff
fffe
ffff
ffff
0000
0000
ffff
0000
0001
0000
0001
0000
0001
0000
0000
0000
ffff
ffff
0000
ffff
0000
ffff
0000
0000
ffff
0001
ffff
0001
fffe
0001
0002
0000
0000
0000
0001
0000
0000
0002
0001
0000
ffff
0001
ffff
ffff
ffff
0000
ffff
0001
0001
ffff
ffff
0001
ffff
0001
0000
0001
0001
ffff
ffff
0001
ffff
0000
0000
ffff
0000
0001
0000
ffff
0001
0001
0001
ffff
0001
0000
fffe
ffff
ffff
0001
0001
0000
0001
ffff
ffff
0000
0001
0000
0001
ffff
ffff
0001
0000
0001
0001
0001
ffff
0000
0000
ffff
0001
ffff
0001
0000
0001
0001
0001
0000
ffff
0000
ffff
fffe
0000
0002
0001
0001
ffff
0000
0000
ffff
ffff
ffff
0000
0000
ffff
0001
ffff
ffff
0001
ffff
0001
ffff
0001
0001
0000
fffe
0000
0000
0001
ffff
0002
0000
ffff
0000
0001
0001
0001
ffff
0000
0001
0001
0001
0000
0000
0001
0000
fffe
0001
0000
0002
0001
0000
ffff
fffe
0000
0001
0000
0000
fffe
0001
0000
0001
ffff
0000
0001
0001
fffe
0001
ffff
0000
0000
ffff
0001
0002
0001
0001
0000
ffff
0001
fffe
ffff
ffff
0002
0001
0000
ffff
0000
0001
ffff
0002
0000
ffff
0000
0001
ffff
0000
ffff
ffff
0001
0000
ffff
0000
0000
0000
ffff
0000
0001
0002
0001
0000
0001
0001
0000
ffff
ffff
0000
0001
ffff
ffff
0001
0000
0001
0000
0001
0000
0000
0001
ffff
ffff
ffff
0000
0000
ffff
ffff
0000
0001
0001
0001
0001
ffff
0000
0000
fffe
0001
0001
0000
0001
0001
ffff
0001
ffff
0001
ffff
0000
0000
ffff
ffff
0000
ffff
ffff
fffe
0001
0001
0001
0001
0000
ffff
0000
0001
0000
0000
ffff
0001
fffe
0000
ffff
0001
0000
ffff
ffff
0000
0000
0001
ffff
ffff
ffff
0000
0002
ffff
0000
0001
0002
ffff
fffe
0002
ffff
0001
fffe
0001
0000
0000
0000
0001
ffff
ffff
ffff
0001
0000
0000
0000
0001
ffff
0001
ffff
0000
0000
ffff
0000
0002
ffff
ffff
0000
0001
ffff
0000
0000
0000
ffff
ffff
0000
0001
fffe
0001
0000
0001
ffff
0001
0000
0001
ffff
0000
ffff
0001
ffff
0002
ffff
0001
ffff
ffff
0000
ffff
0001
0002
0000
ffff
0002
0000
0000
0001
fffe
ffff
0001
0000
ffff
ffff
0001
ffff
0000
0000
0000
ffff
ffff
0000
0000
0001
0000
0002
0001
0001
0001
ffff
0001
ffff
0000
0001
fffe
0001
0001
0000
ffff
ffff
0000
0000
0000
0000
0000
0002
fffe
0000
0001
0001
0001
0001
fffe
ffff
ffff
0001
0001
0001
0002
ffff
0002
0000
0001
0000
ffff
ffff
0000
0001
ffff
ffff
0000
fffe
0000
0000
0000
0000
0001
ffff
ffff
0000
0001
0001
fffe
ffff
ffff
ffff
0000
ffff
0001
ffff
0000
0001
0001
0000
0000
0000
ffff
0002
0001
ffff
0001
0001
ffff
ffff
0000
ffff
ffff
0000
ffff
ffff
0001
0000
0001
0001
0001
ffff
0000
0000
0001
ffff
0001
0001
0000
0000
0001
0001
0001
ffff
ffff
fffe
ffff
0000
0002
ffff
fffe
0000
0000
0000
ffff
ffff
fffe
0002
0000
0000
0001
ffff
ffff
fffe
0000
0001
0001
0000
0000
0000
0001
ffff
0001
0000
0001
ffff
ffff
ffff
ffff
ffff
0000
0002
0002
ffff
0000
ffff
0000
ffff
0000
ffff
ffff
0000
0002
0000
0002
ffff
0001
0000
0001
0000
0000
ffff
ffff
0000
0000
0001
ffff
ffff
ffff
0001
0001
0000
ffff
0001
0000
0001
0000
0002
0001
ffff
0001
ffff
fffe
0001
ffff
0000
0001
ffff
0001
0001
0000
0001
ffff
ffff
fffe
0001
ffff
0001
0000
0000
0001
0001
0001
ffff
0000
0000
0000
0000
ffff
0000
0000
0000
0000
0000
0000
0000
0000
ffff
ffff
0000
ffff
0000
0001
ffff
0001
ffff
ffff
0002
ffff
0001
0001
0001
ffff
0000
0000
0000
0000
0001
0000
0000
0000
0000
0001
0000
0001
ffff
0000
ffff
0001
0000
0000
0001
0001
0001
ffff
0000
0001
0001
fffe
0000
0001
ffff
0001
0001
0000
0000
fffe
0001
0000
0000
0000
0001
ffff
0000
0001
0000
0000
0000
0000
0000
0001
0001
0000
ffff
ffff
0001
0001
0000
ffff
0000
ffff
0001
ffff
0001
0000
0000
0001
0002
ffff
ffff
0000
ffff
0000
0001
ffff
ffff
ffff
0000
ffff
0000
0000
0000
ffff
0000
0001
ffff
0001
0001
ffff
ffff
0001
0000
0001
0000
ffff
0001
0000
ffff
0000
ffff
ffff
0000
ffff
ffff
0000
0000
0001
0001
0000
ffff
fffe
0001
0000
ffff
ffff
0001
0000
0001
0001
0000
0000
ffff
0001
0000
0000
0000
ffff
0000
0001
0000
0000
ffff
0000
0001
ffff
ffff
0001
0001
0000
0001
0000
0000
0000
0001
ffff
0001
0000
ffff
ffff
0000
ffff
0001
0001
0000
0000
0001
0000
ffff
ffff
0000
0001
0001
0000
0001
0000
0000
ffff
0001
0000
0000
0001
0000
0001
ffff
ffff
ffff
0001
0000
ffff
ffff
ffff
0001
0002
ffff
0000
0000
0000
0000
ffff
0000
0001
0001
0000
0000
0000
0000
0000
fffe
0002
0000
0000
0000
ffff
ffff
ffff
0000
0000
ffff
0000
0001
0000
ffff
ffff
0001
0001
0000
0000
ffff
0000
0001
ffff
0001
ffff
ffff
ffff
0001
0000
0001
ffff
ffff
0001
0001
ffff
0000
ffff
0000
0001
ffff
0001
ffff
0001
ffff
0002
ffff
fffe
0001
0000
0000
0001
0001
0000
ffff
ffff
0001
0000
0001
0000
ffff
0000
0001
0002
ffff
ffff
0001
0001
0001
0001
0000
0000
ffff
ffff
ffff
0001
0001
0000
0000
ffff
0002
0001
0000
0000
ffff
0000
0000
0001
0000
0001
0001
ffff
0001
0000
ffff
0001
ffff
0001
0002
0000
ffff
0000
0001
0001
0001
0000
ffff
0001
0000
0000
0002
0000
0002
ffff
ffff
0001
0001
ffff
0001
0000
0001
0000
fffe
0001
ffff
ffff
fffe
0001
0001
ffff
0001
ffff
0001
0001
0000
0001
0001
0001
ffff
ffff
ffff
0001
0000
ffff
0000
0001
0002
0000
fffe
ffff
0001
0000
0001
0001
ffff
0001
0000
ffff
ffff
0000
0000
0001
0002
ffff
0000
ffff
0001
0001
0001
0001
0001
ffff
ffff
fffe
ffff
ffff
0001
ffff
0002
0001
0001
0001
0001
0000
ffff
0001
0001
0001
ffff
0000
0001
0000
0000
0000
0001
0000
0000
0001
ffff
0001
0000
ffff
0001
ffff
0002
0000
fffe
0001
0001
0001
0001
0000
0000
0001
0001
0002
0000
fffe
0000
0000
0001
0001
0001
ffff
ffff
0002
0000
0001
0001
0000
fffe
0002
0001
0000
ffff
0001
fffe
0000
0001
0000
0000
0000
0000
0000
0001
0000
0000
0000
0001
0001
0000
0000
ffff
0001
0001
ffff
0001
0000
ffff
0000
fffe
0001
0001
fffe
0000
0001
0001
0001
ffff
0000
ffff
0002
0000
ffff
0000
0000
0000
0000
0000
fffe
ffff
0001
0001
0001
0001
0001
0000
0002
0001
ffff
ffff
ffff
0000
0000
0000
0000
0000
0000
0000
0001
0000
ffff
ffff
0001
0001
ffff
0002
0000
ffff
ffff
fffe
0001
0001
0001
0000
0000
ffff
ffff
ffff
0001
0000
0000
ffff
ffff
ffff
0000
0002
0000
0000
ffff
ffff
ffff
ffff
0000
0001
ffff
0000
0001
ffff
0001
ffff
0001
0000
ffff
0000
0000
ffff
0001
ffff
0002
0001
fffe
ffff
0001
0000
0001
0001
ffff
0001
ffff
ffff
0001
ffff
ffff
ffff
0001
0001
0001
ffff
ffff
0000
0000
0000
ffff
0000
0000
0000
0000
0001
ffff
0001
0001
0000
0000
0000
0000
0000
0000
0000
0000
ffff
0000
0000
0000
0000
0000
0001
0000
0002
ffff
0001
0000
0001
0000
ffff
0000
0000
ffff
0001
0000
0001
0002
0000
0000
0000
ffff
0001
0002
0001
ffff
ffff
ffff
ffff
0000
fffe
fffe
ffff
0000
0000
0002
0000
0001
0000
0001
ffff
ffff
0000
0000
fffe
0000
fffe
0001
ffff
0000
fffe
0001
0002
0000
0001
0001
0000
0000
0001
ffff
fffe
0000
0001
0000
0001
0001
0000
0001
0000
0000
0000
0001
fffe
0002
0000
0000
0000
0000
ffff
0000
0000
ffff
ffff
0001
0001
0000
0001
0001
ffff
0001
0000
0000
0000
0001
0000
0000
0000
0000
0000
0000
fffe
ffff
0000
0001
ffff
0001
ffff
ffff
0000
ffff
0002
0000
0002
ffff
ffff
0000
0002
0001
ffff
0000
0000
0002
ffff
0001
0000
ffff
ffff
0000
0001
ffff
0002
0002
ffff
0000
0001
ffff
0000
0000
0000
0001
0001
ffff
0001
ffff
0000
0000
ffff
fffe
ffff
ffff
0000
0000
0000
ffff
ffff
0001
0001
0000
0000
0001
0000
0001
ffff
0000
0001
0000
ffff
ffff
0001
0000
0002
0000
0001
0000
0000
ffff
ffff
0002
ffff
0000
fffe
0000
0000
0001
0001
0001
ffff
0001
0000
0000
ffff
ffff
0001
0001
0000
ffff
0000
0000
0000
ffff
0001
0001
0000
0000
ffff
0001
0001
ffff
0001
ffff
0001
0000
fffe
0000
0000
ffff
ffff
0001
0002
0000
0001
0000
ffff
0001
0000
0001
0001
0000
ffff
ffff
0001
0000
ffff
0000
0000
0001
ffff
0000
ffff
ffff
ffff
0001
0000
0001
0001
0000
0001
ffff
0001
0001
fffe
0001
ffff
0000
0000
0000
ffff
0000
0000
ffff
0001
0002
ffff
0001
0000
ffff
0000
0001
ffff
0000
0002
0000
0001
0000
0000
ffff
0002
ffff
ffff
ffff
0000
ffff
0002
0000
0001
0000
0000
0000
0000
0002
0001
0000
0000
0001
0000
0001
ffff
fffe
0000
0000
fffe
0000
ffff
0001
0001
0000
0002
ffff
0000
0001
ffff
0001
0001
0000
ffff
0001
0001
0000
ffff
0000
fffe
0002
0000
0002
0001
0001
0000
ffff
ffff
0001
0000
0000
ffff
ffff
ffff
0000
0001
ffff
0000
0000
fffe
ffff
0000
0001
0001
0000
0001
0001
0001
0000
0000
ffff
0001
0000
ffff
ffff
0001
ffff
0000
0002
0000
0000
ffff
0001
0001
0000
0002
ffff
fffe
0002
0000
0001
0001
0000
0001
0000
fffe
0002
ffff
0000
ffff
fffe
0000
ffff
0002
0000
ffff
0000
ffff
0001
0001
0001
0001
0000
ffff
0001
0001
ffff
fffe
0001
0000
ffff
0000
0001
fffe
0000
0000
ffff
0002
0000
0002
ffff
0000
0000
0001
fffe
0000
ffff
0001
0000
0001
ffff
ffff
0000
0001
0001
ffff
0000
0001
0000
0001
0001
0000
0000
0000
ffff
0000
0002
0000
0000
ffff
0000
ffff
ffff
0002
ffff
0000
ffff
ffff
0001
ffff
0000
ffff
0000
0001
0001
0001
fffe
ffff
0001
0000
0001
fffe
fffe
ffff
ffff
0001
0000
ffff
0000
0002
fffe
0000
0000
ffff
0000
0000
ffff
0002
0000
0000
0000
0000
0002
0000
0000
0000
ffff
fffe
0000
fffe
0001
0000
0000
0001
ffff
0000
ffff
0000
0002
0001
0001
ffff
ffff
ffff
ffff
0001
0000
0001
ffff
0000
0001
0001
0001
ffff
0001
0000
0001
0001
fffe
0001
0000
0001
ffff
0000
fffe
0000
fffe
0000
ffff
0000
0000
0000
0002
fffe
0001
fffe
ffff
ffff
0000
0000
0000
ffff
0001
0001
0001
0000
0001
0000
0000
ffff
ffff
0001
0000
0001
0000
0000
ffff
ffff
0000
0000
0001
0001
0001
ffff
0000
0000
0001
fffe
0000
0000
0000
0001
0000
ffff
0001
0000
0000
ffff
0001
0001
0001
0000
ffff
0001
0000
0001
0001
0000
0000
0000
ffff
0000
ffff
0001
ffff
0000
0001
0001
0002
0001
0000
0001
0000
0000
0000
0000
0000
0000
ffff
0000
0000
0000
ffff
0000
0002
ffff
0000
0001
ffff
0001
ffff
0001
ffff
0001
0000
ffff
0000
0000
0000
ffff
0000
0002
ffff
ffff
0001
0000
0000
ffff
0000
0000
0000
0000
0001
ffff
0000
ffff
ffff
0001
0000
ffff
ffff
0001
fffe
ffff
0001
fffe
0000
0001
ffff
0000
0001
0000
ffff
ffff
ffff
0001
0000
0000
ffff
ffff
0000
0001
0001
0001
0000
ffff
0001
ffff
0000
0000
ffff
0000
0000
ffff
ffff
0000
0001
0002
0001
0001
0000
0000
0000
ffff
0001
0001
0002
0001
0000
ffff
0002
ffff
ffff
ffff
0001
0001
0000
0000
0000
ffff
0001
0000
ffff
fffe
ffff
0000
0002
ffff
0000
0001
0000
0000
ffff
0000
0000
0001
0001
ffff
ffff
ffff
0001
0001
0001
0001
0000
0001
ffff
0000
ffff
ffff
fffe
0001
0001
ffff
fffe
ffff
0001
0001
0001
ffff
0001
0000
0000
0001
ffff
0000
0000
0000
0001
0001
0000
0001
ffff
0001
0000
ffff
0000
0000
0000
0000
0000
0001
0001
0001
ffff
0000
ffff
ffff
fffe
0001
0000
0001
0001
0000
ffff
0002
0001
0001
0000
0000
ffff
0001
0002
0000
0000
0000
0000
0000
ffff
ffff
0000
0001
ffff
ffff
0002
ffff
0001
0000
ffff
ffff
0000
0000
0001
0001
ffff
0001
0000
0000
ffff
0000
ffff
ffff
ffff
0001
0001
0000
fffe
ffff
ffff
ffff
0000
0001
ffff
0001
0000
0000
0002
0000
0000
0000
0000
0001
fffe
0001
0001
ffff
ffff
ffff
0001
ffff
ffff
ffff
0002
0001
ffff
fffe
0000
0002
0001
0002
0000
ffff
0000
0002
ffff
0000
0001
ffff
0000
ffff
ffff
ffff
ffff
0000
0001
ffff
0000
fffe
0001
0001
fffe
0001
0001
0001
0001
0000
0000
0001
0001
ffff
0000
ffff
0001
0001
0001
0000
0000
0000
ffff
0000
0000
ffff
0001
0001
ffff
ffff
0000
ffff
0001
0002
0000
0000
ffff
ffff
0000
0001
0000
0001
0000
0000
0000
ffff
0000
0000
0000
0000
0000
0000
0000
0001
0000
0002
0000
ffff
fffe
ffff
ffff
0000
ffff
ffff
0000
ffff
0000
0001
ffff
ffff
ffff
0001
0001
0000
ffff
ffff
0000
ffff
0001
0001
0001
ffff
0001
0000
0000
0001
0001
0001
0000
fffe
0001
ffff
0000
0001
ffff
0002
0001
ffff
ffff
fffe
0001
0001
0000
0002
ffff
0001
0000
0000
ffff
ffff
fffe
0001
0001
0001
0000
ffff
0000
fffe
0000
ffff
0000
ffff
ffff
0000
ffff
0000
0000
0001
0002
0001
ffff
0000
ffff
0001
0002
ffff
0001
ffff
ffff
ffff
0000
0000
0000
0000
0000
0001
0000
0000
0001
0000
0001
0001
0000
ffff
0002
ffff
0001
0000
0000
0000
ffff
0001
0000
0000
0000
0000
fffe
0000
0000
0001
0000
0000
0001
ffff
ffff
0000
ffff
0002
0000
0000
0001
0000
0000
0001
0000
0000
0000
ffff
ffff
0001
ffff
fffe
0002
0001
ffff
0000
ffff
0000
ffff
0001
0001
0001
ffff
0000
ffff
0000
0000
0000
0002
0000
ffff
ffff
0000
0001
fffe
ffff
fffe
0001
ffff
0001
ffff
0001
0000
0000
0001
0002
0000
0001
0000
ffff
0000
0001
0000
0001
0002
0001
0000
ffff
ffff
fffe
0000
0001
0001
ffff
ffff
ffff
fffe
ffff
0000
ffff
0000
0001
ffff
0000
0002
0001
ffff
0000
0000
ffff
ffff
0001
0002
ffff
0000
ffff
ffff
0001
0001
ffff
fffe
0000
ffff
0000
0001
0000
0000
0000
ffff
0001
0000
ffff
0001
ffff
0001
0000
0000
0001
ffff
0000
ffff
ffff
