0000
0001
0000
0000
0001
0001
0000
0000
0002
0000
0001
ffff
0000
ffff
0001
0001
0002
ffff
0000
ffff
0001
0000
ffff
ffff
ffff
0000
0002
0000
ffff
0003
ffff
ffff
0000
ffff
0000
0002
0000
0000
0000
0001
0000
0004
0001
0000
0000
0000
0001
0000
0000
ffff
0001
ffff
ffff
0003
0001
0000
ffff
0000
0000
0000
0000
0000
ffff
ffff
0001
0001
ffff
0000
0001
0002
ffff
0004
0002
0000
0000
0000
0001
0001
ffff
0002
fffe
ffff
ffff
0000
0001
0000
ffff
ffff
0000
0000
ffff
ffff
0001
0000
ffff
0000
ffff
0001
0000
0000
0000
0000
0000
0001
0000
ffff
0001
0003
ffff
0000
0001
0001
ffff
0000
0000
ffff
0000
fffe
ffff
0002
0000
0002
0000
0000
0003
ffff
0000
0000
0001
ffff
ffff
0003
0001
ffff
0002
0000
0000
0000
0000
0000
0000
0001
ffff
0003
0001
ffff
0000
fffe
fffe
0001
0001
ffff
fffe
ffff
0000
ffff
0000
0000
0001
ffff
0000
fffe
0002
0000
ffff
0000
0000
0000
fffe
0001
0001
0002
0000
0001
0001
0000
0000
0003
ffff
ffff
0002
ffff
0000
ffff
ffff
0000
0001
0003
ffff
ffff
0000
0000
0000
0000
0000
0001
ffff
0000
0000
0000
0000
0000
0000
fffe
0001
0000
0001
0000
0000
0001
ffff
ffff
ffff
ffff
ffff
0000
ffff
0000
0000
0000
fffe
0001
0000
0003
0001
ffff
ffff
0000
0000
0000
0002
0001
ffff
0000
0000
ffff
ffff
ffff
ffff
0000
0002
0000
ffff
0002
0002
0001
0001
0002
ffff
fffe
0001
0000
ffff
0000
ffff
ffff
0003
0000
0000
0000
0000
fffe
fffe
0000
0000
0000
ffff
ffff
0000
0004
ffff
0000
0000
0000
0000
0000
0000
fffe
0000
fffe
0000
0003
0001
fffe
0000
ffff
ffff
0000
0000
ffff
ffff
fffe
0000
0000
0004
ffff
0001
0000
ffff
0000
ffff
0000
0000
fffe
0000
0000
0001
fffe
0000
0000
0002
fffe
0000
0002
0000
ffff
0000
ffff
0003
ffff
0000
0000
0000
0000
0000
0000
0000
0000
0000
0000
0000
0000
0000
0000
0000
0000
0000
0000
0000
0000
0000
0000
0000
0000
0000
0000
0000
0000
0000
0000
0000
0000
0000
0000
0000
0000
0000
0000
0000
0000
0000
0000
0000
0000
0000
0000
0000
0000
0000
0000
0000
0000
0000
0000
0000
0000
0000
0000
0000
0000
0000
0000
0000
0000
